{
  "vocab": {
    "\b": 0,
    "\t": 1,
    "\u0010": 2,
    " ": 3,
    "0": 4,
    "0</w>": 5,
    "1": 6,
    "10</w>": 7,
    "19": 8,
    "1</w>": 9,
    "2": 10,
    "2</w>": 11,
    "3": 12,
    "3</w>": 13,
    "4": 14,
    "4</w>": 15,
    "5": 16,
    "5</w>": 17,
    "6": 18,
    "7": 19,
    "8": 20,
    "9": 21,
    "</w>": 22,
    "<UNK>": 23,
    "a": 24,
    "a</w>": 25,
    "ab": 26,
    "able</w>": 27,
    "ably</w>": 28,
    "about</w>": 29,
    "ac": 30,
    "acc": 31,
    "ace</w>": 32,
    "ack": 33,
    "ack</w>": 34,
    "act": 35,
    "act</w>": 36,
    "acting</w>": 37,
    "action</w>": 38,
    "actor</w>": 39,
    "actors</w>": 40,
    "actually</w>": 41,
    "ad": 42,
    "ad</w>": 43,
    "af": 44,
    "after</w>": 45,
    "ag": 46,
    "aga": 47,
    "again</w>": 48,
    "age</w>": 49,
    "al": 50,
    "al</w>": 51,
    "ale</w>": 52,
    "ali": 53,
    "ality</w>": 54,
    "all": 55,
    "all</w>": 56,
    "ally</w>": 57,
    "almost</w>": 58,
    "alo": 59,
    "als</w>": 60,
    "also</w>": 61,
    "although</w>": 62,
    "always</w>": 63,
    "am": 64,
    "am</w>": 65,
    "ame</w>": 66,
    "amer": 67,
    "americ": 68,
    "an": 69,
    "an</w>": 70,
    "ance</w>": 71,
    "and": 72,
    "and</w>": 73,
    "ane</w>": 74,
    "ang": 75,
    "anim": 76,
    "another</w>": 77,
    "ans</w>": 78,
    "ant": 79,
    "ant</w>": 80,
    "any": 81,
    "any</w>": 82,
    "anyone</w>": 83,
    "anything</w>": 84,
    "ap": 85,
    "appe": 86,
    "ar": 87,
    "ar</w>": 88,
    "ard</w>": 89,
    "are</w>": 90,
    "arly</w>": 91,
    "around</w>": 92,
    "ary</w>": 93,
    "as": 94,
    "as</w>": 95,
    "ason</w>": 96,
    "at": 97,
    "at</w>": 98,
    "ate</w>": 99,
    "ated</w>": 100,
    "ately</w>": 101,
    "ates</w>": 102,
    "ati": 103,
    "ating</w>": 104,
    "ation</w>": 105,
    "ations</w>": 106,
    "ative</w>": 107,
    "att": 108,
    "au": 109,
    "audi": 110,
    "aw": 111,
    "away</w>": 112,
    "b": 113,
    "b</w>": 114,
    "ba": 115,
    "back</w>": 116,
    "bad</w>": 117,
    "bar": 118,
    "bas": 119,
    "be": 120,
    "be</w>": 121,
    "beau": 122,
    "beauti": 123,
    "because</w>": 124,
    "been</w>": 125,
    "before</w>": 126,
    "being</w>": 127,
    "beli": 128,
    "believe</w>": 129,
    "ber": 130,
    "ber</w>": 131,
    "best</w>": 132,
    "better</w>": 133,
    "between</w>": 134,
    "bi": 135,
    "big</w>": 136,
    "bit</w>": 137,
    "bl": 138,
    "ble</w>": 139,
    "bly</w>": 140,
    "bo": 141,
    "body</w>": 142,
    "book</w>": 143,
    "bor": 144,
    "both</w>": 145,
    "br": 146,
    "br</w>": 147,
    "brea": 148,
    "bri": 149,
    "bro": 150,
    "bu": 151,
    "bud": 152,
    "but</w>": 153,
    "by</w>": 154,
    "c": 155,
    "c</w>": 156,
    "ca": 157,
    "came</w>": 158,
    "can": 159,
    "can</w>": 160,
    "cap": 161,
    "car": 162,
    "cast</w>": 163,
    "cause</w>": 164,
    "cc": 165,
    "ce</w>": 166,
    "ced</w>": 167,
    "cer": 168,
    "ces</w>": 169,
    "ch": 170,
    "ch</w>": 171,
    "cha": 172,
    "char": 173,
    "charact": 174,
    "character</w>": 175,
    "characters</w>": 176,
    "che": 177,
    "chil": 178,
    "ci": 179,
    "cial</w>": 180,
    "cially</w>": 181,
    "cin": 182,
    "cinem": 183,
    "ck": 184,
    "ck</w>": 185,
    "cla": 186,
    "class": 187,
    "cli": 188,
    "clo": 189,
    "co": 190,
    "col": 191,
    "com": 192,
    "come": 193,
    "come</w>": 194,
    "comedy</w>": 195,
    "comes</w>": 196,
    "comm": 197,
    "comp": 198,
    "comple": 199,
    "con": 200,
    "consi": 201,
    "cont": 202,
    "conv": 203,
    "cor": 204,
    "cou": 205,
    "could</w>": 206,
    "coun": 207,
    "cour": 208,
    "course</w>": 209,
    "cra": 210,
    "cre": 211,
    "credi": 212,
    "cri": 213,
    "ct": 214,
    "ct</w>": 215,
    "cted</w>": 216,
    "ction</w>": 217,
    "cts</w>": 218,
    "cu": 219,
    "cul": 220,
    "d": 221,
    "d</w>": 222,
    "da": 223,
    "dan": 224,
    "dar": 225,
    "day</w>": 226,
    "dd": 227,
    "de": 228,
    "de</w>": 229,
    "dea": 230,
    "deci": 231,
    "ded</w>": 232,
    "deli": 233,
    "der": 234,
    "der</w>": 235,
    "des</w>": 236,
    "dev": 237,
    "di": 238,
    "dialo": 239,
    "did</w>": 240,
    "didn</w>": 241,
    "diff": 242,
    "differ": 243,
    "different</w>": 244,
    "ding</w>": 245,
    "dire": 246,
    "direct": 247,
    "director</w>": 248,
    "dis": 249,
    "disa": 250,
    "disap": 251,
    "dly</w>": 252,
    "dn</w>": 253,
    "do": 254,
    "do</w>": 255,
    "does": 256,
    "does</w>": 257,
    "doesn</w>": 258,
    "don</w>": 259,
    "done</w>": 260,
    "down</w>": 261,
    "dr": 262,
    "dram": 263,
    "dre": 264,
    "ds</w>": 265,
    "du": 266,
    "dv": 267,
    "dvd</w>": 268,
    "dy</w>": 269,
    "e": 270,
    "e</w>": 271,
    "ea": 272,
    "each</w>": 273,
    "ear": 274,
    "ear</w>": 275,
    "ears</w>": 276,
    "ed": 277,
    "ed</w>": 278,
    "een</w>": 279,
    "ef": 280,
    "effe": 281,
    "ei": 282,
    "el": 283,
    "el</w>": 284,
    "ele": 285,
    "ell": 286,
    "ell</w>": 287,
    "els</w>": 288,
    "ely</w>": 289,
    "em": 290,
    "en": 291,
    "en</w>": 292,
    "ence</w>": 293,
    "end": 294,
    "end</w>": 295,
    "ending</w>": 296,
    "ends</w>": 297,
    "eng": 298,
    "ening</w>": 299,
    "enjo": 300,
    "enough</w>": 301,
    "ens</w>": 302,
    "ent": 303,
    "ent</w>": 304,
    "enter": 305,
    "entertain": 306,
    "enti": 307,
    "ently</w>": 308,
    "ents</w>": 309,
    "ep": 310,
    "ep</w>": 311,
    "episo": 312,
    "ept</w>": 313,
    "er": 314,
    "er</w>": 315,
    "ere</w>": 316,
    "eri": 317,
    "ers</w>": 318,
    "es": 319,
    "es</w>": 320,
    "espe": 321,
    "especially</w>": 322,
    "ess": 323,
    "ess</w>": 324,
    "est": 325,
    "est</w>": 326,
    "et": 327,
    "et</w>": 328,
    "ev": 329,
    "eve</w>": 330,
    "even</w>": 331,
    "ever": 332,
    "ever</w>": 333,
    "every": 334,
    "every</w>": 335,
    "everything</w>": 336,
    "ex": 337,
    "exc": 338,
    "expe": 339,
    "ey</w>": 340,
    "f": 341,
    "f</w>": 342,
    "fa": 343,
    "fact</w>": 344,
    "fam": 345,
    "family</w>": 346,
    "far</w>": 347,
    "father</w>": 348,
    "fe": 349,
    "fe</w>": 350,
    "feel</w>": 351,
    "few</w>": 352,
    "ff": 353,
    "ff</w>": 354,
    "fi": 355,
    "fil": 356,
    "film</w>": 357,
    "films</w>": 358,
    "fin": 359,
    "find</w>": 360,
    "fir": 361,
    "first</w>": 362,
    "fl": 363,
    "fli": 364,
    "fo": 365,
    "foll": 366,
    "for": 367,
    "for</w>": 368,
    "fore</w>": 369,
    "found</w>": 370,
    "fr": 371,
    "fri": 372,
    "friend</w>": 373,
    "fro": 374,
    "from</w>": 375,
    "ft</w>": 376,
    "fu": 377,
    "ful": 378,
    "ful</w>": 379,
    "fully</w>": 380,
    "fun": 381,
    "fun</w>": 382,
    "funny</w>": 383,
    "g": 384,
    "g</w>": 385,
    "ga": 386,
    "ge": 387,
    "ge</w>": 388,
    "gen": 389,
    "ger</w>": 390,
    "get</w>": 391,
    "gets</w>": 392,
    "gh": 393,
    "gh</w>": 394,
    "ght": 395,
    "ght</w>": 396,
    "gi": 397,
    "gin": 398,
    "gir": 399,
    "girl</w>": 400,
    "give</w>": 401,
    "go": 402,
    "go</w>": 403,
    "goes</w>": 404,
    "going</w>": 405,
    "good</w>": 406,
    "got</w>": 407,
    "gr": 408,
    "gra": 409,
    "graph": 410,
    "gre": 411,
    "great</w>": 412,
    "gs</w>": 413,
    "gu": 414,
    "gue</w>": 415,
    "guy</w>": 416,
    "h": 417,
    "h</w>": 418,
    "ha": 419,
    "had</w>": 420,
    "hal": 421,
    "happ": 422,
    "har": 423,
    "hard</w>": 424,
    "has</w>": 425,
    "have</w>": 426,
    "having</w>": 427,
    "he</w>": 428,
    "hea": 429,
    "hear": 430,
    "hel": 431,
    "her": 432,
    "her</w>": 433,
    "here</w>": 434,
    "hi": 435,
    "him</w>": 436,
    "his</w>": 437,
    "ho": 438,
    "hom": 439,
    "hop": 440,
    "hor": 441,
    "horror</w>": 442,
    "hou": 443,
    "house</w>": 444,
    "how": 445,
    "how</w>": 446,
    "however</w>": 447,
    "hu": 448,
    "i": 449,
    "i</w>": 450,
    "ic": 451,
    "ic</w>": 452,
    "ical</w>": 453,
    "ically</w>": 454,
    "ice</w>": 455,
    "ick</w>": 456,
    "id</w>": 457,
    "ide": 458,
    "ies</w>": 459,
    "if</w>": 460,
    "il": 461,
    "il</w>": 462,
    "ile</w>": 463,
    "ill": 464,
    "ill</w>": 465,
    "illi": 466,
    "ily</w>": 467,
    "im": 468,
    "ima": 469,
    "in": 470,
    "in</w>": 471,
    "inc": 472,
    "ind</w>": 473,
    "ine</w>": 474,
    "ing": 475,
    "ing</w>": 476,
    "ingly</w>": 477,
    "ings</w>": 478,
    "ins</w>": 479,
    "inst": 480,
    "int": 481,
    "inter": 482,
    "interest": 483,
    "interesting</w>": 484,
    "into</w>": 485,
    "inv": 486,
    "ion</w>": 487,
    "ious</w>": 488,
    "ir": 489,
    "ir</w>": 490,
    "is": 491,
    "is</w>": 492,
    "isn</w>": 493,
    "iso": 494,
    "it": 495,
    "it</w>": 496,
    "ite</w>": 497,
    "its</w>": 498,
    "ity</w>": 499,
    "j": 500,
    "je": 501,
    "jo": 502,
    "job</w>": 503,
    "joh": 504,
    "ju": 505,
    "just</w>": 506,
    "k": 507,
    "k</w>": 508,
    "ke": 509,
    "ke</w>": 510,
    "ked</w>": 511,
    "ken</w>": 512,
    "ker</w>": 513,
    "kes</w>": 514,
    "ki": 515,
    "kill": 516,
    "kind</w>": 517,
    "king</w>": 518,
    "kn": 519,
    "know</w>": 520,
    "ks</w>": 521,
    "l": 522,
    "l</w>": 523,
    "la": 524,
    "lar</w>": 525,
    "last</w>": 526,
    "lat": 527,
    "later</w>": 528,
    "lau": 529,
    "laugh": 530,
    "ld</w>": 531,
    "ldn</w>": 532,
    "le": 533,
    "le</w>": 534,
    "lea": 535,
    "least</w>": 536,
    "led</w>": 537,
    "les</w>": 538,
    "less</w>": 539,
    "let</w>": 540,
    "lev": 541,
    "li": 542,
    "life</w>": 543,
    "like</w>": 544,
    "lin": 545,
    "line</w>": 546,
    "ling</w>": 547,
    "little</w>": 548,
    "ll</w>": 549,
    "lo": 550,
    "long</w>": 551,
    "loo": 552,
    "look</w>": 553,
    "looking</w>": 554,
    "looks</w>": 555,
    "lot</w>": 556,
    "lov": 557,
    "love</w>": 558,
    "low</w>": 559,
    "ls</w>": 560,
    "lu": 561,
    "ly</w>": 562,
    "m": 563,
    "m</w>": 564,
    "ma": 565,
    "made</w>": 566,
    "main</w>": 567,
    "make</w>": 568,
    "makes</w>": 569,
    "making</w>": 570,
    "man": 571,
    "man</w>": 572,
    "many</w>": 573,
    "mar": 574,
    "mat": 575,
    "may": 576,
    "may</w>": 577,
    "maybe</w>": 578,
    "me": 579,
    "me</w>": 580,
    "mem": 581,
    "ment": 582,
    "ment</w>": 583,
    "mi": 584,
    "might</w>": 585,
    "min": 586,
    "minutes</w>": 587,
    "mis": 588,
    "mo": 589,
    "mom": 590,
    "mon": 591,
    "money</w>": 592,
    "mor": 593,
    "more</w>": 594,
    "most</w>": 595,
    "mov": 596,
    "movi": 597,
    "movie</w>": 598,
    "movies</w>": 599,
    "ms</w>": 600,
    "mu": 601,
    "much</w>": 602,
    "mur": 603,
    "mus": 604,
    "music</w>": 605,
    "must</w>": 606,
    "my": 607,
    "my</w>": 608,
    "n": 609,
    "n</w>": 610,
    "na": 611,
    "ne": 612,
    "ned</w>": 613,
    "ner</w>": 614,
    "ness</w>": 615,
    "never</w>": 616,
    "new</w>": 617,
    "ney</w>": 618,
    "ni": 619,
    "night</w>": 620,
    "ning</w>": 621,
    "no": 622,
    "no</w>": 623,
    "not</w>": 624,
    "nothing</w>": 625,
    "now</w>": 626,
    "ns</w>": 627,
    "nu": 628,
    "ny</w>": 629,
    "o": 630,
    "o</w>": 631,
    "ob": 632,
    "of": 633,
    "of</w>": 634,
    "off": 635,
    "off</w>": 636,
    "ol": 637,
    "old</w>": 638,
    "oll": 639,
    "om": 640,
    "on": 641,
    "on</w>": 642,
    "onal</w>": 643,
    "once</w>": 644,
    "one</w>": 645,
    "ong</w>": 646,
    "only</w>": 647,
    "ons</w>": 648,
    "oo": 649,
    "ood</w>": 650,
    "ook</w>": 651,
    "ool</w>": 652,
    "op": 653,
    "or": 654,
    "or</w>": 655,
    "ore</w>": 656,
    "ori": 657,
    "origin": 658,
    "original</w>": 659,
    "ors</w>": 660,
    "ort</w>": 661,
    "ose</w>": 662,
    "ot</w>": 663,
    "other</w>": 664,
    "ou": 665,
    "ough": 666,
    "ough</w>": 667,
    "ought</w>": 668,
    "ould</w>": 669,
    "oun": 670,
    "ound</w>": 671,
    "our": 672,
    "our</w>": 673,
    "ous": 674,
    "ous</w>": 675,
    "ously</w>": 676,
    "out": 677,
    "out</w>": 678,
    "ov": 679,
    "over": 680,
    "over</w>": 681,
    "ow": 682,
    "ow</w>": 683,
    "owing</w>": 684,
    "own</w>": 685,
    "ows</w>": 686,
    "p": 687,
    "p</w>": 688,
    "pa": 689,
    "par": 690,
    "part</w>": 691,
    "pe": 692,
    "peop": 693,
    "people</w>": 694,
    "per": 695,
    "perfe": 696,
    "perfor": 697,
    "performan": 698,
    "performance</w>": 699,
    "peri": 700,
    "ph": 701,
    "pi": 702,
    "pic": 703,
    "pie": 704,
    "pl": 705,
    "pla": 706,
    "place</w>": 707,
    "play</w>": 708,
    "played</w>": 709,
    "plays</w>": 710,
    "ple</w>": 711,
    "plo": 712,
    "plot</w>": 713,
    "po": 714,
    "poin": 715,
    "point</w>": 716,
    "poli": 717,
    "por": 718,
    "possi": 719,
    "pow": 720,
    "pp": 721,
    "pr": 722,
    "pre": 723,
    "pres": 724,
    "pretty</w>": 725,
    "pri": 726,
    "pro": 727,
    "prob": 728,
    "probably</w>": 729,
    "proble": 730,
    "produ": 731,
    "prov": 732,
    "ps</w>": 733,
    "pt</w>": 734,
    "pu": 735,
    "put</w>": 736,
    "q": 737,
    "qu": 738,
    "quite</w>": 739,
    "r": 740,
    "r</w>": 741,
    "ra": 742,
    "ran": 743,
    "rather</w>": 744,
    "re": 745,
    "re</w>": 746,
    "rea": 747,
    "read": 748,
    "real</w>": 749,
    "reali": 750,
    "really</w>": 751,
    "reason</w>": 752,
    "rec": 753,
    "recomm": 754,
    "red</w>": 755,
    "ree</w>": 756,
    "rel": 757,
    "res</w>": 758,
    "rev": 759,
    "ri": 760,
    "rible</w>": 761,
    "right</w>": 762,
    "ro": 763,
    "role</w>": 764,
    "rom": 765,
    "ror</w>": 766,
    "row": 767,
    "ru": 768,
    "run": 769,
    "ry</w>": 770,
    "s": 771,
    "s</w>": 772,
    "sa": 773,
    "same</w>": 774,
    "saw</w>": 775,
    "say</w>": 776,
    "sc": 777,
    "scen": 778,
    "scene</w>": 779,
    "scenes</w>": 780,
    "sch": 781,
    "scre": 782,
    "screen</w>": 783,
    "scri": 784,
    "script</w>": 785,
    "se": 786,
    "se</w>": 787,
    "secon": 788,
    "sed</w>": 789,
    "see": 790,
    "see</w>": 791,
    "seem": 792,
    "seems</w>": 793,
    "seen</w>": 794,
    "sel": 795,
    "self</w>": 796,
    "sen": 797,
    "sense</w>": 798,
    "sequ": 799,
    "ser": 800,
    "series</w>": 801,
    "ses</w>": 802,
    "set</w>": 803,
    "sh": 804,
    "sh</w>": 805,
    "she</w>": 806,
    "shi": 807,
    "sho": 808,
    "should</w>": 809,
    "show</w>": 810,
    "shows</w>": 811,
    "si": 812,
    "side</w>": 813,
    "sim": 814,
    "simp": 815,
    "sin": 816,
    "since</w>": 817,
    "sing</w>": 818,
    "sion</w>": 819,
    "sit": 820,
    "sk": 821,
    "sm": 822,
    "sn</w>": 823,
    "so": 824,
    "so</w>": 825,
    "sol": 826,
    "som": 827,
    "some": 828,
    "some</w>": 829,
    "someone</w>": 830,
    "something</w>": 831,
    "son": 832,
    "son</w>": 833,
    "sp": 834,
    "spe": 835,
    "spo": 836,
    "ss": 837,
    "ss</w>": 838,
    "ssi": 839,
    "st": 840,
    "st</w>": 841,
    "sta": 842,
    "star": 843,
    "ste": 844,
    "ster": 845,
    "ster</w>": 846,
    "stic</w>": 847,
    "still</w>": 848,
    "stor": 849,
    "story</w>": 850,
    "str": 851,
    "sts</w>": 852,
    "stu": 853,
    "sty": 854,
    "su": 855,
    "sub": 856,
    "such</w>": 857,
    "sup": 858,
    "suppo": 859,
    "sur": 860,
    "sure</w>": 861,
    "surpri": 862,
    "sy": 863,
    "sy</w>": 864,
    "t": 865,
    "t</w>": 866,
    "ta": 867,
    "tain": 868,
    "take</w>": 869,
    "tal": 870,
    "te": 871,
    "te</w>": 872,
    "ted</w>": 873,
    "ten</w>": 874,
    "ter": 875,
    "ter</w>": 876,
    "th": 877,
    "th</w>": 878,
    "than</w>": 879,
    "that</w>": 880,
    "the": 881,
    "the</w>": 882,
    "their</w>": 883,
    "them</w>": 884,
    "then</w>": 885,
    "ther": 886,
    "ther</w>": 887,
    "there</w>": 888,
    "thers</w>": 889,
    "these</w>": 890,
    "they</w>": 891,
    "thin": 892,
    "thing</w>": 893,
    "things</w>": 894,
    "think</w>": 895,
    "this</w>": 896,
    "those</w>": 897,
    "though</w>": 898,
    "thought</w>": 899,
    "thr": 900,
    "three</w>": 901,
    "through</w>": 902,
    "ti": 903,
    "tic": 904,
    "tic</w>": 905,
    "ties</w>": 906,
    "tim": 907,
    "time</w>": 908,
    "times</w>": 909,
    "ting</w>": 910,
    "tion</w>": 911,
    "tions</w>": 912,
    "tit": 913,
    "tive</w>": 914,
    "to": 915,
    "to</w>": 916,
    "toge": 917,
    "together</w>": 918,
    "too</w>": 919,
    "tr": 920,
    "tra": 921,
    "tre": 922,
    "tri": 923,
    "tru": 924,
    "true</w>": 925,
    "try</w>": 926,
    "trying</w>": 927,
    "ts</w>": 928,
    "tt": 929,
    "tten</w>": 930,
    "tter</w>": 931,
    "tting</w>": 932,
    "ttle</w>": 933,
    "tty</w>": 934,
    "tu": 935,
    "tun": 936,
    "tur": 937,
    "ture</w>": 938,
    "tv</w>": 939,
    "tw": 940,
    "tween</w>": 941,
    "two</w>": 942,
    "ty</w>": 943,
    "typ": 944,
    "u": 945,
    "ually</w>": 946,
    "ul": 947,
    "un": 948,
    "under": 949,
    "underst": 950,
    "up</w>": 951,
    "ur": 952,
    "ure</w>": 953,
    "uring</w>": 954,
    "us</w>": 955,
    "use</w>": 956,
    "used</w>": 957,
    "usu": 958,
    "ut": 959,
    "utes</w>": 960,
    "v": 961,
    "v</w>": 962,
    "ve</w>": 963,
    "ved</w>": 964,
    "ven</w>": 965,
    "ver": 966,
    "very</w>": 967,
    "ves</w>": 968,
    "vi": 969,
    "vie": 970,
    "view": 971,
    "ving</w>": 972,
    "vo": 973,
    "w": 974,
    "w</w>": 975,
    "wa": 976,
    "wal": 977,
    "wan": 978,
    "want</w>": 979,
    "war": 980,
    "was</w>": 981,
    "wasn</w>": 982,
    "wast": 983,
    "wat": 984,
    "watch": 985,
    "watch</w>": 986,
    "watched</w>": 987,
    "watching</w>": 988,
    "way</w>": 989,
    "ways</w>": 990,
    "we": 991,
    "we</w>": 992,
    "well</w>": 993,
    "were</w>": 994,
    "wh": 995,
    "what</w>": 996,
    "when</w>": 997,
    "where</w>": 998,
    "whi": 999,
    "which</w>": 1000,
    "while</w>": 1001,
    "who": 1002,
    "who</w>": 1003,
    "whole</w>": 1004,
    "why</w>": 1005,
    "wi": 1006,
    "will</w>": 1007,
    "with": 1008,
    "with</w>": 1009,
    "without</w>": 1010,
    "wom": 1011,
    "woman</w>": 1012,
    "won": 1013,
    "wonder": 1014,
    "wood</w>": 1015,
    "wor": 1016,
    "work</w>": 1017,
    "world</w>": 1018,
    "worst</w>": 1019,
    "worth</w>": 1020,
    "would</w>": 1021,
    "wr": 1022,
    "wri": 1023,
    "x": 1024,
    "x</w>": 1025,
    "y": 1026,
    "y</w>": 1027,
    "year</w>": 1028,
    "years</w>": 1029,
    "yed</w>": 1030,
    "yes</w>": 1031,
    "yet</w>": 1032,
    "ying</w>": 1033,
    "you": 1034,
    "you</w>": 1035,
    "youn": 1036,
    "young</w>": 1037,
    "your</w>": 1038,
    "yp": 1039,
    "ys</w>": 1040,
    "z": 1041,
    "": 1042,
    "": 1043,
    "": 1044,
    "": 1045,
    "": 1046,
    "": 1047,
    "": 1048,
    "": 1049,
    "": 1050,
    "": 1051,
    "": 1052,
    " ": 1053,
    "¡": 1054,
    "¢": 1055,
    "£": 1056,
    "¤": 1057,
    "¦": 1058,
    "§": 1059,
    "¨": 1060,
    "«": 1061,
    "­": 1062,
    "®": 1063,
    "°": 1064,
    "³": 1065,
    "´": 1066,
    "·": 1067,
    "º": 1068,
    "»": 1069,
    "½": 1070,
    "¾": 1071,
    "¿": 1072,
    "ß": 1073,
    "à": 1074,
    "á": 1075,
    "â": 1076,
    "ã": 1077,
    "ä": 1078,
    "å": 1079,
    "æ": 1080,
    "ç": 1081,
    "è": 1082,
    "é": 1083,
    "ê": 1084,
    "ë": 1085,
    "ì": 1086,
    "í": 1087,
    "î": 1088,
    "ï": 1089,
    "ð": 1090,
    "ñ": 1091,
    "ò": 1092,
    "ó": 1093,
    "ô": 1094,
    "õ": 1095,
    "ö": 1096,
    "ø": 1097,
    "ù": 1098,
    "ú": 1099,
    "û": 1100,
    "ü": 1101,
    "ý": 1102,
    "ō": 1103,
    "–": 1104,
    "‘": 1105,
    "’": 1106,
    "“": 1107,
    "”": 1108,
    "…": 1109,
    "₤": 1110,
    "": 1111
  },
  "merges": [
    [
      "e",
      "</w>"
    ],
    [
      "s",
      "</w>"
    ],
    [
      "t",
      "h"
    ],
    [
      "t",
      "</w>"
    ],
    [
      "d",
      "</w>"
    ],
    [
      "i",
      "n"
    ],
    [
      "r",
      "</w>"
    ],
    [
      "a",
      "n"
    ],
    [
      "y",
      "</w>"
    ],
    [
      "th",
      "e</w>"
    ],
    [
      "o",
      "n"
    ],
    [
      "e",
      "n"
    ],
    [
      "o",
      "</w>"
    ],
    [
      "e",
      "r"
    ],
    [
      "i",
      "s</w>"
    ],
    [
      "g",
      "</w>"
    ],
    [
      "o",
      "u"
    ],
    [
      "a",
      "</w>"
    ],
    [
      "a",
      "l"
    ],
    [
      "in",
      "g</w>"
    ],
    [
      "f",
      "</w>"
    ],
    [
      "r",
      "e"
    ],
    [
      "a",
      "r"
    ],
    [
      "an",
      "d</w>"
    ],
    [
      "e",
      "r</w>"
    ],
    [
      "o",
      "r"
    ],
    [
      "t",
      "o</w>"
    ],
    [
      "o",
      "f</w>"
    ],
    [
      "s",
      "t"
    ],
    [
      "e",
      "d</w>"
    ],
    [
      "i",
      "l"
    ],
    [
      "a",
      "t</w>"
    ],
    [
      "e",
      "s</w>"
    ],
    [
      "c",
      "h"
    ],
    [
      "l",
      "y</w>"
    ],
    [
      "a",
      "s</w>"
    ],
    [
      "in",
      "</w>"
    ],
    [
      "a",
      "t"
    ],
    [
      "on",
      "</w>"
    ],
    [
      "m",
      "</w>"
    ],
    [
      "l",
      "</w>"
    ],
    [
      "i",
      "t</w>"
    ],
    [
      "b",
      "r</w>"
    ],
    [
      "i",
      "</w>"
    ],
    [
      "w",
      "h"
    ],
    [
      "a",
      "c"
    ],
    [
      "l",
      "i"
    ],
    [
      "en",
      "</w>"
    ],
    [
      "s",
      "t</w>"
    ],
    [
      "o",
      "r</w>"
    ],
    [
      "o",
      "m"
    ],
    [
      "o",
      "v"
    ],
    [
      "t",
      "i"
    ],
    [
      "an",
      "</w>"
    ],
    [
      "th",
      "is</w>"
    ],
    [
      "s",
      "h"
    ],
    [
      "b",
      "e"
    ],
    [
      "th",
      "at</w>"
    ],
    [
      "r",
      "o"
    ],
    [
      "r",
      "i"
    ],
    [
      "s",
      "e"
    ],
    [
      "d",
      "i"
    ],
    [
      "o",
      "w"
    ],
    [
      "k",
      "</w>"
    ],
    [
      "l",
      "e</w>"
    ],
    [
      "th",
      "</w>"
    ],
    [
      "l",
      "e"
    ],
    [
      "w",
      "i"
    ],
    [
      "v",
      "e</w>"
    ],
    [
      "i",
      "c"
    ],
    [
      "b",
      "u"
    ],
    [
      "g",
      "h"
    ],
    [
      "h",
      "a"
    ],
    [
      "s",
      "e</w>"
    ],
    [
      "m",
      "ov"
    ],
    [
      "th",
      "e"
    ],
    [
      "m",
      "a"
    ],
    [
      "e",
      "v"
    ],
    [
      "al",
      "</w>"
    ],
    [
      "u",
      "n"
    ],
    [
      "o",
      "t</w>"
    ],
    [
      "mov",
      "i"
    ],
    [
      "i",
      "t"
    ],
    [
      "f",
      "il"
    ],
    [
      "o",
      "o"
    ],
    [
      "w",
      "as</w>"
    ],
    [
      "e",
      "l"
    ],
    [
      "a",
      "b"
    ],
    [
      "ch",
      "</w>"
    ],
    [
      "a",
      "m"
    ],
    [
      "y",
      "ou"
    ],
    [
      "s",
      "u"
    ],
    [
      "d",
      "e"
    ],
    [
      "n",
      "</w>"
    ],
    [
      "er",
      "e</w>"
    ],
    [
      "f",
      "or</w>"
    ],
    [
      "wi",
      "th</w>"
    ],
    [
      "movi",
      "e</w>"
    ],
    [
      "on",
      "e</w>"
    ],
    [
      "bu",
      "t</w>"
    ],
    [
      "l",
      "a"
    ],
    [
      "s",
      "i"
    ],
    [
      "fil",
      "m</w>"
    ],
    [
      "ou",
      "t</w>"
    ],
    [
      "k",
      "e</w>"
    ],
    [
      "ac",
      "t"
    ],
    [
      "s",
      "c"
    ],
    [
      "r",
      "a"
    ],
    [
      "l",
      "d</w>"
    ],
    [
      "p",
      "</w>"
    ],
    [
      "t",
      "s</w>"
    ],
    [
      "c",
      "om"
    ],
    [
      "p",
      "e"
    ],
    [
      "ar",
      "e</w>"
    ],
    [
      "you",
      "</w>"
    ],
    [
      "ow",
      "</w>"
    ],
    [
      "al",
      "ly</w>"
    ],
    [
      "c",
      "e</w>"
    ],
    [
      "u",
      "r"
    ],
    [
      "en",
      "t</w>"
    ],
    [
      "n",
      "ot</w>"
    ],
    [
      "al",
      "l</w>"
    ],
    [
      "b",
      "e</w>"
    ],
    [
      "e",
      "x"
    ],
    [
      "p",
      "o"
    ],
    [
      "h",
      "e</w>"
    ],
    [
      "s",
      "o</w>"
    ],
    [
      "i",
      "r"
    ],
    [
      "er",
      "s</w>"
    ],
    [
      "h",
      "is</w>"
    ],
    [
      "c",
      "a"
    ],
    [
      "s",
      "om"
    ],
    [
      "w",
      "a"
    ],
    [
      "t",
      "t"
    ],
    [
      "th",
      "er</w>"
    ],
    [
      "o",
      "l"
    ],
    [
      "m",
      "e</w>"
    ],
    [
      "ha",
      "ve</w>"
    ],
    [
      "e",
      "m"
    ],
    [
      "g",
      "e"
    ],
    [
      "ou",
      "ld</w>"
    ],
    [
      "s",
      "a"
    ],
    [
      "s",
      "s</w>"
    ],
    [
      "n",
      "e"
    ],
    [
      "o",
      "p"
    ],
    [
      "c",
      "on"
    ],
    [
      "f",
      "or"
    ],
    [
      "v",
      "i"
    ],
    [
      "t",
      "a"
    ],
    [
      "b",
      "y</w>"
    ],
    [
      "ou",
      "gh"
    ],
    [
      "at",
      "i"
    ],
    [
      "f",
      "e"
    ],
    [
      "v",
      "er"
    ],
    [
      "m",
      "o"
    ],
    [
      "the",
      "y</w>"
    ],
    [
      "w",
      "or"
    ],
    [
      "p",
      "er"
    ],
    [
      "j",
      "u"
    ],
    [
      "d",
      "e</w>"
    ],
    [
      "e",
      "a"
    ],
    [
      "wh",
      "o</w>"
    ],
    [
      "m",
      "u"
    ],
    [
      "t",
      "o"
    ],
    [
      "li",
      "ke</w>"
    ],
    [
      "oo",
      "d</w>"
    ],
    [
      "a",
      "g"
    ],
    [
      "f",
      "ro"
    ],
    [
      "t",
      "r"
    ],
    [
      "d",
      "s</w>"
    ],
    [
      "fro",
      "m</w>"
    ],
    [
      "w",
      "</w>"
    ],
    [
      "h",
      "i"
    ],
    [
      "q",
      "u"
    ],
    [
      "th",
      "ing</w>"
    ],
    [
      "d",
      "o"
    ],
    [
      "t",
      "er"
    ],
    [
      "f",
      "u"
    ],
    [
      "p",
      "re"
    ],
    [
      "h",
      "er</w>"
    ],
    [
      "or",
      "e</w>"
    ],
    [
      "p",
      "l"
    ],
    [
      "ic",
      "</w>"
    ],
    [
      "a",
      "s"
    ],
    [
      "th",
      "ere</w>"
    ],
    [
      "ch",
      "ar"
    ],
    [
      "il",
      "l</w>"
    ],
    [
      "a",
      "d"
    ],
    [
      "ti",
      "on</w>"
    ],
    [
      "ev",
      "er</w>"
    ],
    [
      "ju",
      "st</w>"
    ],
    [
      "p",
      "ro"
    ],
    [
      "ou",
      "n"
    ],
    [
      "m",
      "an"
    ],
    [
      "ab",
      "out</w>"
    ],
    [
      "i",
      "s"
    ],
    [
      "t",
      "er</w>"
    ],
    [
      "wh",
      "at</w>"
    ],
    [
      "som",
      "e</w>"
    ],
    [
      "i",
      "f</w>"
    ],
    [
      "b",
      "o"
    ],
    [
      "s",
      "p"
    ],
    [
      "a",
      "d</w>"
    ],
    [
      "h",
      "as</w>"
    ],
    [
      "st",
      "or"
    ],
    [
      "c",
      "t"
    ],
    [
      "ough",
      "</w>"
    ],
    [
      "f",
      "a"
    ],
    [
      "in",
      "g"
    ],
    [
      "p",
      "ar"
    ],
    [
      "c",
      "i"
    ],
    [
      "gh",
      "t</w>"
    ],
    [
      "k",
      "ing</w>"
    ],
    [
      "w",
      "at"
    ],
    [
      "el",
      "l</w>"
    ],
    [
      "ou",
      "s</w>"
    ],
    [
      "g",
      "u"
    ],
    [
      "g",
      "ood</w>"
    ],
    [
      "l",
      "o"
    ],
    [
      "i",
      "r</w>"
    ],
    [
      "en",
      "t"
    ],
    [
      "c",
      "an</w>"
    ],
    [
      "m",
      "ore</w>"
    ],
    [
      "e",
      "s"
    ],
    [
      "j",
      "o"
    ],
    [
      "char",
      "act"
    ],
    [
      "c",
      "u"
    ],
    [
      "ver",
      "y</w>"
    ],
    [
      "m",
      "y</w>"
    ],
    [
      "sh",
      "e</w>"
    ],
    [
      "wh",
      "en</w>"
    ],
    [
      "f",
      "in"
    ],
    [
      "r",
      "e</w>"
    ],
    [
      "e",
      "ly</w>"
    ],
    [
      "u",
      "p</w>"
    ],
    [
      "p",
      "la"
    ],
    [
      "d",
      "u"
    ],
    [
      "g",
      "re"
    ],
    [
      "n",
      "o"
    ],
    [
      "o",
      "ther</w>"
    ],
    [
      "e",
      "ar"
    ],
    [
      "m",
      "i"
    ],
    [
      "ab",
      "le</w>"
    ],
    [
      "a",
      "p"
    ],
    [
      "ti",
      "me</w>"
    ],
    [
      "stor",
      "y</w>"
    ],
    [
      "i",
      "m"
    ],
    [
      "ev",
      "en</w>"
    ],
    [
      "wa",
      "y</w>"
    ],
    [
      "k",
      "s</w>"
    ],
    [
      "y",
      "s</w>"
    ],
    [
      "n",
      "o</w>"
    ],
    [
      "a",
      "u"
    ],
    [
      "ati",
      "on</w>"
    ],
    [
      "at",
      "e</w>"
    ],
    [
      "m",
      "an</w>"
    ],
    [
      "en",
      "d</w>"
    ],
    [
      "d",
      "er"
    ],
    [
      "w",
      "ould</w>"
    ],
    [
      "ge",
      "t</w>"
    ],
    [
      "wh",
      "i"
    ],
    [
      "g",
      "e</w>"
    ],
    [
      "g",
      "i"
    ],
    [
      "e",
      "p"
    ],
    [
      "ac",
      "k</w>"
    ],
    [
      "whi",
      "ch</w>"
    ],
    [
      "mo",
      "st</w>"
    ],
    [
      "o",
      "f"
    ],
    [
      "on",
      "ly</w>"
    ],
    [
      "an",
      "t</w>"
    ],
    [
      "am",
      "e</w>"
    ],
    [
      "on",
      "s</w>"
    ],
    [
      "r",
      "u"
    ],
    [
      "d",
      "y</w>"
    ],
    [
      "m",
      "e"
    ],
    [
      "l",
      "oo"
    ],
    [
      "t",
      "w"
    ],
    [
      "re",
      "ally</w>"
    ],
    [
      "sc",
      "en"
    ],
    [
      "ow",
      "n</w>"
    ],
    [
      "u",
      "se</w>"
    ],
    [
      "se",
      "e</w>"
    ],
    [
      "0",
      "</w>"
    ],
    [
      "it",
      "y</w>"
    ],
    [
      "som",
      "e"
    ],
    [
      "the",
      "ir</w>"
    ],
    [
      "m",
      "in"
    ],
    [
      "ha",
      "d</w>"
    ],
    [
      "g",
      "o"
    ],
    [
      "a",
      "f"
    ],
    [
      "w",
      "e</w>"
    ],
    [
      "l",
      "u"
    ],
    [
      "w",
      "ell</w>"
    ],
    [
      "e",
      "l</w>"
    ],
    [
      "on",
      "g</w>"
    ],
    [
      "n",
      "ow</w>"
    ],
    [
      "sh",
      "</w>"
    ],
    [
      "w",
      "ere</w>"
    ],
    [
      "d",
      "a"
    ],
    [
      "s",
      "s"
    ],
    [
      "se",
      "l"
    ],
    [
      "l",
      "ov"
    ],
    [
      "fu",
      "l</w>"
    ],
    [
      "e",
      "st"
    ],
    [
      "m",
      "s</w>"
    ],
    [
      "it",
      "s</w>"
    ],
    [
      "p",
      "p"
    ],
    [
      "f",
      "ir"
    ],
    [
      "t",
      "ed</w>"
    ],
    [
      "le",
      "a"
    ],
    [
      "d",
      "o</w>"
    ],
    [
      "th",
      "an</w>"
    ],
    [
      "d",
      "ing</w>"
    ],
    [
      "en",
      "ce</w>"
    ],
    [
      "s",
      "er"
    ],
    [
      "t",
      "ur"
    ],
    [
      "t",
      "ing</w>"
    ],
    [
      "y",
      "ing</w>"
    ],
    [
      "m",
      "ar"
    ],
    [
      "d",
      "on</w>"
    ],
    [
      "ev",
      "er"
    ],
    [
      "mu",
      "ch</w>"
    ],
    [
      "b",
      "i"
    ],
    [
      "h",
      "ow</w>"
    ],
    [
      "f",
      "i"
    ],
    [
      "oun",
      "d</w>"
    ],
    [
      "p",
      "u"
    ],
    [
      "ca",
      "use</w>"
    ],
    [
      "it",
      "e</w>"
    ],
    [
      "f",
      "e</w>"
    ],
    [
      "c",
      "re"
    ],
    [
      "pe",
      "op"
    ],
    [
      "c",
      "</w>"
    ],
    [
      "p",
      "a"
    ],
    [
      "peop",
      "le</w>"
    ],
    [
      "di",
      "re"
    ],
    [
      "b",
      "ad</w>"
    ],
    [
      "be",
      "en</w>"
    ],
    [
      "w",
      "ill</w>"
    ],
    [
      "p",
      "h"
    ],
    [
      "c",
      "k</w>"
    ],
    [
      "re",
      "d</w>"
    ],
    [
      "al",
      "so</w>"
    ],
    [
      "in",
      "to</w>"
    ],
    [
      "il",
      "l"
    ],
    [
      "th",
      "in"
    ],
    [
      "fir",
      "st</w>"
    ],
    [
      "gre",
      "at</w>"
    ],
    [
      "be",
      "cause</w>"
    ],
    [
      "k",
      "es</w>"
    ],
    [
      "b",
      "</w>"
    ],
    [
      "a",
      "r</w>"
    ],
    [
      "n",
      "i"
    ],
    [
      "hi",
      "m</w>"
    ],
    [
      "b",
      "l"
    ],
    [
      "c",
      "t</w>"
    ],
    [
      "g",
      "in"
    ],
    [
      "t",
      "ra"
    ],
    [
      "ma",
      "ke</w>"
    ],
    [
      "b",
      "le</w>"
    ],
    [
      "f",
      "un"
    ],
    [
      "d",
      "er</w>"
    ],
    [
      "v",
      "es</w>"
    ],
    [
      "i",
      "d</w>"
    ],
    [
      "ma",
      "de</w>"
    ],
    [
      "ar",
      "d</w>"
    ],
    [
      "h",
      "u"
    ],
    [
      "an",
      "y</w>"
    ],
    [
      "t",
      "e"
    ],
    [
      "at",
      "ed</w>"
    ],
    [
      "si",
      "on</w>"
    ],
    [
      "en",
      "ts</w>"
    ],
    [
      "en",
      "ti"
    ],
    [
      "s",
      "ed</w>"
    ],
    [
      "al",
      "l"
    ],
    [
      "th",
      "en</w>"
    ],
    [
      "th",
      "r"
    ],
    [
      "e",
      "t</w>"
    ],
    [
      "an",
      "y"
    ],
    [
      "the",
      "m</w>"
    ],
    [
      "wh",
      "ere</w>"
    ],
    [
      "ing",
      "s</w>"
    ],
    [
      "t",
      "e</w>"
    ],
    [
      "c",
      "ould</w>"
    ],
    [
      "sel",
      "f</w>"
    ],
    [
      "to",
      "o</w>"
    ],
    [
      "d",
      "ed</w>"
    ],
    [
      "k",
      "ed</w>"
    ],
    [
      "el",
      "l"
    ],
    [
      "in",
      "ter"
    ],
    [
      "c",
      "o"
    ],
    [
      "r",
      "an"
    ],
    [
      "t",
      "y</w>"
    ],
    [
      "or",
      "s</w>"
    ],
    [
      "movi",
      "es</w>"
    ],
    [
      "af",
      "ter</w>"
    ],
    [
      "in",
      "e</w>"
    ],
    [
      "d",
      "n</w>"
    ],
    [
      "ac",
      "e</w>"
    ],
    [
      "wat",
      "ch"
    ],
    [
      "s",
      "pe"
    ],
    [
      "al",
      "i"
    ],
    [
      "st",
      "ar"
    ],
    [
      "ov",
      "er</w>"
    ],
    [
      "il",
      "e</w>"
    ],
    [
      "vi",
      "e"
    ],
    [
      "s",
      "on</w>"
    ],
    [
      "dire",
      "ct"
    ],
    [
      "le",
      "ss</w>"
    ],
    [
      "thin",
      "k</w>"
    ],
    [
      "x",
      "</w>"
    ],
    [
      "c",
      "ou"
    ],
    [
      "charact",
      "ers</w>"
    ],
    [
      "l",
      "l</w>"
    ],
    [
      "th",
      "ough</w>"
    ],
    [
      "v",
      "ing</w>"
    ],
    [
      "i",
      "es</w>"
    ],
    [
      "charact",
      "er</w>"
    ],
    [
      "wat",
      "ch</w>"
    ],
    [
      "po",
      "in"
    ],
    [
      "il",
      "</w>"
    ],
    [
      "m",
      "ent</w>"
    ],
    [
      "tw",
      "o</w>"
    ],
    [
      "man",
      "y</w>"
    ],
    [
      "st",
      "u"
    ],
    [
      "fil",
      "ms</w>"
    ],
    [
      "com",
      "p"
    ],
    [
      "act",
      "ing</w>"
    ],
    [
      "se",
      "en</w>"
    ],
    [
      "h",
      "or"
    ],
    [
      "tt",
      "le</w>"
    ],
    [
      "pl",
      "ot</w>"
    ],
    [
      "u",
      "s</w>"
    ],
    [
      "li",
      "fe</w>"
    ],
    [
      "k",
      "e"
    ],
    [
      "be",
      "ing</w>"
    ],
    [
      "tt",
      "er</w>"
    ],
    [
      "t",
      "ri"
    ],
    [
      "f",
      "f"
    ],
    [
      "n",
      "y</w>"
    ],
    [
      "h",
      "ere</w>"
    ],
    [
      "c",
      "es</w>"
    ],
    [
      "p",
      "r"
    ],
    [
      "ic",
      "e</w>"
    ],
    [
      "lov",
      "e</w>"
    ],
    [
      "n",
      "ever</w>"
    ],
    [
      "p",
      "ri"
    ],
    [
      "di",
      "d</w>"
    ],
    [
      "an",
      "ce</w>"
    ],
    [
      "li",
      "ttle</w>"
    ],
    [
      "be",
      "st</w>"
    ],
    [
      "d",
      "r"
    ],
    [
      "g",
      "r"
    ],
    [
      "ar",
      "y</w>"
    ],
    [
      "or",
      "i"
    ],
    [
      "ag",
      "e</w>"
    ],
    [
      "m",
      "on"
    ],
    [
      "sh",
      "ow</w>"
    ],
    [
      "p",
      "or"
    ],
    [
      "of",
      "f</w>"
    ],
    [
      "ac",
      "t</w>"
    ],
    [
      "ti",
      "m"
    ],
    [
      "k",
      "now</w>"
    ],
    [
      "com",
      "m"
    ],
    [
      "b",
      "r"
    ],
    [
      "w",
      "ri"
    ],
    [
      "1",
      "9"
    ],
    [
      "tr",
      "u"
    ],
    [
      "ov",
      "er"
    ],
    [
      "a",
      "m</w>"
    ],
    [
      "s",
      "o"
    ],
    [
      "f",
      "ri"
    ],
    [
      "at",
      "t"
    ],
    [
      "ou",
      "r</w>"
    ],
    [
      "do",
      "es</w>"
    ],
    [
      "o",
      "se</w>"
    ],
    [
      "il",
      "y</w>"
    ],
    [
      "g",
      "en"
    ],
    [
      "g",
      "ra"
    ],
    [
      "e",
      "f"
    ],
    [
      "w",
      "e"
    ],
    [
      "wh",
      "ile</w>"
    ],
    [
      "g",
      "o</w>"
    ],
    [
      "ex",
      "c"
    ],
    [
      "be",
      "tter</w>"
    ],
    [
      "y",
      "ed</w>"
    ],
    [
      "you",
      "r</w>"
    ],
    [
      "st",
      "ill</w>"
    ],
    [
      "su",
      "r"
    ],
    [
      "am",
      "er"
    ],
    [
      "c",
      "tion</w>"
    ],
    [
      "ag",
      "a"
    ],
    [
      "per",
      "for"
    ],
    [
      "ur",
      "e</w>"
    ],
    [
      "n",
      "ing</w>"
    ],
    [
      "sa",
      "y</w>"
    ],
    [
      "r",
      "y</w>"
    ],
    [
      "o",
      "ld</w>"
    ],
    [
      "p",
      "i"
    ],
    [
      "u",
      "ally</w>"
    ],
    [
      "t",
      "al"
    ],
    [
      "s",
      "si"
    ],
    [
      "the",
      "se</w>"
    ],
    [
      "scen",
      "e</w>"
    ],
    [
      "da",
      "y</w>"
    ],
    [
      "se",
      "em"
    ],
    [
      "b",
      "ack</w>"
    ],
    [
      "ever",
      "y"
    ],
    [
      "c",
      "ar"
    ],
    [
      "pro",
      "b"
    ],
    [
      "c",
      "la"
    ],
    [
      "ic",
      "al</w>"
    ],
    [
      "wh",
      "y</w>"
    ],
    [
      "ta",
      "in"
    ],
    [
      "com",
      "e</w>"
    ],
    [
      "ol",
      "l"
    ],
    [
      "scen",
      "es</w>"
    ],
    [
      "ear",
      "s</w>"
    ],
    [
      "ne",
      "w</w>"
    ],
    [
      "su",
      "ch</w>"
    ],
    [
      "h",
      "ea"
    ],
    [
      "ha",
      "pp"
    ],
    [
      "f",
      "am"
    ],
    [
      "an",
      "d"
    ],
    [
      "m",
      "at"
    ],
    [
      "some",
      "thing</w>"
    ],
    [
      "si",
      "m"
    ],
    [
      "re",
      "al</w>"
    ],
    [
      "sh",
      "ould</w>"
    ],
    [
      "s",
      "ing</w>"
    ],
    [
      "u",
      "t"
    ],
    [
      "b",
      "er"
    ],
    [
      "vie",
      "w"
    ],
    [
      "thr",
      "ough</w>"
    ],
    [
      "ough",
      "t</w>"
    ],
    [
      "sc",
      "re"
    ],
    [
      "be",
      "li"
    ],
    [
      "p",
      "s</w>"
    ],
    [
      "re",
      "s</w>"
    ],
    [
      "g",
      "ir"
    ],
    [
      "e",
      "ss</w>"
    ],
    [
      "se",
      "e"
    ],
    [
      "wor",
      "k</w>"
    ],
    [
      "s",
      "in"
    ],
    [
      "p",
      "le</w>"
    ],
    [
      "in",
      "d</w>"
    ],
    [
      "e",
      "st</w>"
    ],
    [
      "o",
      "b"
    ],
    [
      "w",
      "om"
    ],
    [
      "ou",
      "s"
    ],
    [
      "ab",
      "ly</w>"
    ],
    [
      "at",
      "ing</w>"
    ],
    [
      "p",
      "t</w>"
    ],
    [
      "u",
      "l"
    ],
    [
      "perfor",
      "man"
    ],
    [
      "in",
      "t"
    ],
    [
      "an",
      "s</w>"
    ],
    [
      "par",
      "t</w>"
    ],
    [
      "for",
      "e</w>"
    ],
    [
      "th",
      "ose</w>"
    ],
    [
      "sc",
      "ri"
    ],
    [
      "ow",
      "s</w>"
    ],
    [
      "watch",
      "ing</w>"
    ],
    [
      "mu",
      "s"
    ],
    [
      "k",
      "i"
    ],
    [
      "act",
      "ors</w>"
    ],
    [
      "do",
      "es"
    ],
    [
      "k",
      "ill"
    ],
    [
      "fun",
      "ny</w>"
    ],
    [
      "does",
      "n</w>"
    ],
    [
      "y",
      "ears</w>"
    ],
    [
      "tt",
      "y</w>"
    ],
    [
      "tim",
      "es</w>"
    ],
    [
      "l",
      "es</w>"
    ],
    [
      "direct",
      "or</w>"
    ],
    [
      "m",
      "em"
    ],
    [
      "h",
      "</w>"
    ],
    [
      "an",
      "g"
    ],
    [
      "in",
      "c"
    ],
    [
      "h",
      "er"
    ],
    [
      "1",
      "0</w>"
    ],
    [
      "st",
      "er</w>"
    ],
    [
      "w",
      "ar"
    ],
    [
      "gh",
      "</w>"
    ],
    [
      "en",
      "jo"
    ],
    [
      "com",
      "e"
    ],
    [
      "un",
      "der"
    ],
    [
      "di",
      "dn</w>"
    ],
    [
      "an",
      "other</w>"
    ],
    [
      "be",
      "fore</w>"
    ],
    [
      "you",
      "n"
    ],
    [
      "j",
      "e"
    ],
    [
      "s",
      "en"
    ],
    [
      "on",
      "al</w>"
    ],
    [
      "no",
      "thing</w>"
    ],
    [
      "st",
      "r"
    ],
    [
      "wa",
      "ys</w>"
    ],
    [
      "ma",
      "kes</w>"
    ],
    [
      "wi",
      "th"
    ],
    [
      "p",
      "ic"
    ],
    [
      "loo",
      "k</w>"
    ],
    [
      "act",
      "ually</w>"
    ],
    [
      "2",
      "</w>"
    ],
    [
      "b",
      "ro"
    ],
    [
      "pro",
      "du"
    ],
    [
      "e",
      "en</w>"
    ],
    [
      "go",
      "ing</w>"
    ],
    [
      "la",
      "u"
    ],
    [
      "inter",
      "est"
    ],
    [
      "ori",
      "gin"
    ],
    [
      "fin",
      "d</w>"
    ],
    [
      "wh",
      "o"
    ],
    [
      "il",
      "li"
    ],
    [
      "or",
      "t</w>"
    ],
    [
      "fe",
      "w</w>"
    ],
    [
      "s",
      "ame</w>"
    ],
    [
      "cu",
      "l"
    ],
    [
      "ti",
      "ve</w>"
    ],
    [
      "ri",
      "ght</w>"
    ],
    [
      "e",
      "y</w>"
    ],
    [
      "h",
      "ar"
    ],
    [
      "r",
      "or</w>"
    ],
    [
      "ca",
      "st</w>"
    ],
    [
      "l",
      "ot</w>"
    ],
    [
      "ac",
      "tion</w>"
    ],
    [
      "aga",
      "in</w>"
    ],
    [
      "d",
      "es</w>"
    ],
    [
      "d",
      "own</w>"
    ],
    [
      "t",
      "re"
    ],
    [
      "ever",
      "y</w>"
    ],
    [
      "v",
      "en</w>"
    ],
    [
      "d",
      "ly</w>"
    ],
    [
      "di",
      "ff"
    ],
    [
      "b",
      "er</w>"
    ],
    [
      "h",
      "ou"
    ],
    [
      "st",
      "er"
    ],
    [
      "oo",
      "k</w>"
    ],
    [
      "wor",
      "ld</w>"
    ],
    [
      "h",
      "ow"
    ],
    [
      "i",
      "ous</w>"
    ],
    [
      "sh",
      "i"
    ],
    [
      "com",
      "es</w>"
    ],
    [
      "c",
      "ts</w>"
    ],
    [
      "in",
      "st"
    ],
    [
      "w",
      "on"
    ],
    [
      "s",
      "es</w>"
    ],
    [
      "f",
      "o"
    ],
    [
      "s",
      "y"
    ],
    [
      "h",
      "el"
    ],
    [
      "v",
      "o"
    ],
    [
      "c",
      "k"
    ],
    [
      "tur",
      "e</w>"
    ],
    [
      "g",
      "ot</w>"
    ],
    [
      "g",
      "a"
    ],
    [
      "c",
      "ol"
    ],
    [
      "h",
      "ear"
    ],
    [
      "c",
      "in"
    ],
    [
      "su",
      "re</w>"
    ],
    [
      "th",
      "ings</w>"
    ],
    [
      "ous",
      "ly</w>"
    ],
    [
      "qu",
      "ite</w>"
    ],
    [
      "y",
      "p"
    ],
    [
      "e",
      "i"
    ],
    [
      "comp",
      "le"
    ],
    [
      "c",
      "ra"
    ],
    [
      "ti",
      "c</w>"
    ],
    [
      "w",
      "ant</w>"
    ],
    [
      "n",
      "u"
    ],
    [
      "v",
      "ed</w>"
    ],
    [
      "v",
      "</w>"
    ],
    [
      "s",
      "ol"
    ],
    [
      "w",
      "an"
    ],
    [
      "pre",
      "tty</w>"
    ],
    [
      "ch",
      "e"
    ],
    [
      "youn",
      "g</w>"
    ],
    [
      "e",
      "p</w>"
    ],
    [
      "al",
      "ity</w>"
    ],
    [
      "c",
      "or"
    ],
    [
      "re",
      "e</w>"
    ],
    [
      "ef",
      "fe"
    ],
    [
      "l",
      "ong</w>"
    ],
    [
      "seem",
      "s</w>"
    ],
    [
      "ar",
      "ound</w>"
    ],
    [
      "h",
      "o"
    ],
    [
      "b",
      "ri"
    ],
    [
      "hor",
      "ror</w>"
    ],
    [
      "1",
      "</w>"
    ],
    [
      "c",
      "er"
    ],
    [
      "ti",
      "c"
    ],
    [
      "b",
      "a"
    ],
    [
      "en",
      "ds</w>"
    ],
    [
      "n",
      "ed</w>"
    ],
    [
      "in",
      "v"
    ],
    [
      "st",
      "ic</w>"
    ],
    [
      "ta",
      "ke</w>"
    ],
    [
      "f",
      "act</w>"
    ],
    [
      "how",
      "ever</w>"
    ],
    [
      "re",
      "a"
    ],
    [
      "con",
      "t"
    ],
    [
      "c",
      "ri"
    ],
    [
      "ch",
      "il"
    ],
    [
      "l",
      "ow</w>"
    ],
    [
      "gi",
      "ve</w>"
    ],
    [
      "poin",
      "t</w>"
    ],
    [
      "si",
      "de</w>"
    ],
    [
      "b",
      "as"
    ],
    [
      "origin",
      "al</w>"
    ],
    [
      "al",
      "s</w>"
    ],
    [
      "bi",
      "g</w>"
    ],
    [
      "b",
      "or"
    ],
    [
      "e",
      "ve</w>"
    ],
    [
      "ap",
      "pe"
    ],
    [
      "as",
      "on</w>"
    ],
    [
      "th",
      "ought</w>"
    ],
    [
      "a",
      "w"
    ],
    [
      "t",
      "u"
    ],
    [
      "d",
      "re"
    ],
    [
      "l",
      "at"
    ],
    [
      "en",
      "ough</w>"
    ],
    [
      "ex",
      "pe"
    ],
    [
      "of",
      "f"
    ],
    [
      "fu",
      "l"
    ],
    [
      "ser",
      "ies</w>"
    ],
    [
      "ge",
      "ts</w>"
    ],
    [
      "ma",
      "y</w>"
    ],
    [
      "pre",
      "s"
    ],
    [
      "bo",
      "th</w>"
    ],
    [
      "tw",
      "een</w>"
    ],
    [
      "be",
      "au"
    ],
    [
      "amer",
      "ic"
    ],
    [
      "be",
      "tween</w>"
    ],
    [
      "su",
      "b"
    ],
    [
      "k",
      "n"
    ],
    [
      "tt",
      "ing</w>"
    ],
    [
      "sh",
      "o"
    ],
    [
      "st",
      "s</w>"
    ],
    [
      "b",
      "it</w>"
    ],
    [
      "interest",
      "ing</w>"
    ],
    [
      "ati",
      "ons</w>"
    ],
    [
      "m",
      "y"
    ],
    [
      "en",
      "g"
    ],
    [
      "sa",
      "w</w>"
    ],
    [
      "5",
      "</w>"
    ],
    [
      "st",
      "a"
    ],
    [
      "at",
      "ely</w>"
    ],
    [
      "d",
      "one</w>"
    ],
    [
      "with",
      "out</w>"
    ],
    [
      "ch",
      "a"
    ],
    [
      "ac",
      "k"
    ],
    [
      "mu",
      "st</w>"
    ],
    [
      "come",
      "dy</w>"
    ],
    [
      "l",
      "ine</w>"
    ],
    [
      "al",
      "ways</w>"
    ],
    [
      "en",
      "ter"
    ],
    [
      "l",
      "in"
    ],
    [
      "s",
      "m"
    ],
    [
      "n",
      "a"
    ],
    [
      "fam",
      "ily</w>"
    ],
    [
      "ro",
      "le</w>"
    ],
    [
      "is",
      "n</w>"
    ],
    [
      "d",
      "ev"
    ],
    [
      "ci",
      "al</w>"
    ],
    [
      "d",
      "d"
    ],
    [
      "l",
      "ed</w>"
    ],
    [
      "oo",
      "l</w>"
    ],
    [
      "3",
      "</w>"
    ],
    [
      "tr",
      "y</w>"
    ],
    [
      "al",
      "most</w>"
    ],
    [
      "cin",
      "em"
    ],
    [
      "m",
      "is"
    ],
    [
      "se",
      "qu"
    ],
    [
      "lea",
      "st</w>"
    ],
    [
      "c",
      "lo"
    ],
    [
      "pla",
      "y</w>"
    ],
    [
      "ea",
      "r</w>"
    ],
    [
      "di",
      "s"
    ],
    [
      "who",
      "le</w>"
    ],
    [
      "scri",
      "pt</w>"
    ],
    [
      "ma",
      "king</w>"
    ],
    [
      "diff",
      "er"
    ],
    [
      "n",
      "s</w>"
    ],
    [
      "h",
      "om"
    ],
    [
      "mus",
      "ic</w>"
    ],
    [
      "an",
      "t"
    ],
    [
      "ar",
      "ly</w>"
    ],
    [
      "fa",
      "r</w>"
    ],
    [
      "gu",
      "y</w>"
    ],
    [
      "ut",
      "es</w>"
    ],
    [
      "t",
      "un"
    ],
    [
      "r",
      "un"
    ],
    [
      "i",
      "de"
    ],
    [
      "en",
      "ding</w>"
    ],
    [
      "la",
      "st</w>"
    ],
    [
      "re",
      "l"
    ],
    [
      "ne",
      "ss</w>"
    ],
    [
      "m",
      "or"
    ],
    [
      "b",
      "ar"
    ],
    [
      "gh",
      "t"
    ],
    [
      "f",
      "t</w>"
    ],
    [
      "c",
      "oun"
    ],
    [
      "n",
      "er</w>"
    ],
    [
      "s",
      "ch"
    ],
    [
      "f",
      "li"
    ],
    [
      "c",
      "an"
    ],
    [
      "au",
      "di"
    ],
    [
      "es",
      "s"
    ],
    [
      "se",
      "t</w>"
    ],
    [
      "cou",
      "r"
    ],
    [
      "le",
      "t</w>"
    ],
    [
      "m",
      "om"
    ],
    [
      "ep",
      "t</w>"
    ],
    [
      "min",
      "utes</w>"
    ],
    [
      "fe",
      "el</w>"
    ],
    [
      "any",
      "thing</w>"
    ],
    [
      "g",
      "s</w>"
    ],
    [
      "di",
      "sa"
    ],
    [
      "a",
      "way</w>"
    ],
    [
      "mi",
      "ght</w>"
    ],
    [
      "en",
      "s</w>"
    ],
    [
      "gra",
      "ph"
    ],
    [
      "t",
      "v</w>"
    ],
    [
      "sin",
      "ce</w>"
    ],
    [
      "ic",
      "k</w>"
    ],
    [
      "gir",
      "l</w>"
    ],
    [
      "es",
      "pe"
    ],
    [
      "performan",
      "ce</w>"
    ],
    [
      "l",
      "dn</w>"
    ],
    [
      "k",
      "ind</w>"
    ],
    [
      "t",
      "yp"
    ],
    [
      "wom",
      "an</w>"
    ],
    [
      "per",
      "i"
    ],
    [
      "su",
      "p"
    ],
    [
      "ful",
      "ly</w>"
    ],
    [
      "pr",
      "ov"
    ],
    [
      "jo",
      "h"
    ],
    [
      "c",
      "ed</w>"
    ],
    [
      "ent",
      "ly</w>"
    ],
    [
      "en",
      "d"
    ],
    [
      "al",
      "o"
    ],
    [
      "g",
      "er</w>"
    ],
    [
      "prob",
      "ably</w>"
    ],
    [
      "ing",
      "ly</w>"
    ],
    [
      "y",
      "es</w>"
    ],
    [
      "al",
      "e</w>"
    ],
    [
      "ri",
      "ble</w>"
    ],
    [
      "e",
      "le"
    ],
    [
      "c",
      "c"
    ],
    [
      "f",
      "r"
    ],
    [
      "s",
      "on"
    ],
    [
      "i",
      "ma"
    ],
    [
      "dr",
      "am"
    ],
    [
      "re",
      "c"
    ],
    [
      "y",
      "et</w>"
    ],
    [
      "k",
      "er</w>"
    ],
    [
      "re",
      "v"
    ],
    [
      "pi",
      "e"
    ],
    [
      "ra",
      "ther</w>"
    ],
    [
      "wor",
      "st</w>"
    ],
    [
      "f",
      "ound</w>"
    ],
    [
      "ea",
      "ch</w>"
    ],
    [
      "ti",
      "ons</w>"
    ],
    [
      "ci",
      "ally</w>"
    ],
    [
      "ati",
      "ve</w>"
    ],
    [
      "fun",
      "</w>"
    ],
    [
      "h",
      "ard</w>"
    ],
    [
      "s",
      "n</w>"
    ],
    [
      "re",
      "ad"
    ],
    [
      "th",
      "er"
    ],
    [
      "h",
      "al"
    ],
    [
      "enter",
      "tain"
    ],
    [
      "ti",
      "es</w>"
    ],
    [
      "ma",
      "y"
    ],
    [
      "is",
      "o"
    ],
    [
      "w",
      "ood</w>"
    ],
    [
      "c",
      "li"
    ],
    [
      "act",
      "or</w>"
    ],
    [
      "d",
      "ar"
    ],
    [
      "ro",
      "w"
    ],
    [
      "re",
      "ali"
    ],
    [
      "po",
      "li"
    ],
    [
      "any",
      "one</w>"
    ],
    [
      "pla",
      "yed</w>"
    ],
    [
      "ep",
      "iso"
    ],
    [
      "beau",
      "ti"
    ],
    [
      "ur",
      "ing</w>"
    ],
    [
      "t",
      "en</w>"
    ],
    [
      "sen",
      "se</w>"
    ],
    [
      "scre",
      "en</w>"
    ],
    [
      "w",
      "al"
    ],
    [
      "pl",
      "ace</w>"
    ],
    [
      "m",
      "ur"
    ],
    [
      "ha",
      "ving</w>"
    ],
    [
      "l",
      "ing</w>"
    ],
    [
      "en",
      "ing</w>"
    ],
    [
      "under",
      "st"
    ],
    [
      "ic",
      "ally</w>"
    ],
    [
      "di",
      "alo"
    ],
    [
      "r",
      "om"
    ],
    [
      "won",
      "der"
    ],
    [
      "la",
      "r</w>"
    ],
    [
      "d",
      "an"
    ],
    [
      "4",
      "</w>"
    ],
    [
      "ct",
      "ed</w>"
    ],
    [
      "m",
      "ent"
    ],
    [
      "al",
      "though</w>"
    ],
    [
      "espe",
      "cially</w>"
    ],
    [
      "cour",
      "se</w>"
    ],
    [
      "ou",
      "t"
    ],
    [
      "con",
      "v"
    ],
    [
      "sur",
      "pri"
    ],
    [
      "h",
      "op"
    ],
    [
      "beli",
      "eve</w>"
    ],
    [
      "b",
      "ook</w>"
    ],
    [
      "lau",
      "gh"
    ],
    [
      "loo",
      "king</w>"
    ],
    [
      "se",
      "con"
    ],
    [
      "fri",
      "end</w>"
    ],
    [
      "hou",
      "se</w>"
    ],
    [
      "ma",
      "in</w>"
    ],
    [
      "con",
      "si"
    ],
    [
      "d",
      "v"
    ],
    [
      "ni",
      "ght</w>"
    ],
    [
      "st",
      "e"
    ],
    [
      "el",
      "s</w>"
    ],
    [
      "de",
      "li"
    ],
    [
      "tr",
      "ying</w>"
    ],
    [
      "ou",
      "r"
    ],
    [
      "bo",
      "dy</w>"
    ],
    [
      "go",
      "es</w>"
    ],
    [
      "ca",
      "p"
    ],
    [
      "wor",
      "th</w>"
    ],
    [
      "f",
      "f</w>"
    ],
    [
      "per",
      "fe"
    ],
    [
      "po",
      "ssi"
    ],
    [
      "in",
      "s</w>"
    ],
    [
      "cla",
      "ss"
    ],
    [
      "differ",
      "ent</w>"
    ],
    [
      "th",
      "ers</w>"
    ],
    [
      "pu",
      "t</w>"
    ],
    [
      "tt",
      "en</w>"
    ],
    [
      "loo",
      "ks</w>"
    ],
    [
      "gu",
      "e</w>"
    ],
    [
      "de",
      "a"
    ],
    [
      "s",
      "po"
    ],
    [
      "sim",
      "p"
    ],
    [
      "ti",
      "t"
    ],
    [
      "p",
      "ow"
    ],
    [
      "c",
      "ame</w>"
    ],
    [
      "fa",
      "ther</w>"
    ],
    [
      "s",
      "k"
    ],
    [
      "i",
      "on</w>"
    ],
    [
      "bu",
      "d"
    ],
    [
      "y",
      "ear</w>"
    ],
    [
      "tru",
      "e</w>"
    ],
    [
      "ac",
      "c"
    ],
    [
      "prob",
      "le"
    ],
    [
      "mon",
      "ey</w>"
    ],
    [
      "to",
      "ge"
    ],
    [
      "toge",
      "ther</w>"
    ],
    [
      "l",
      "s</w>"
    ],
    [
      "b",
      "ly</w>"
    ],
    [
      "dv",
      "d</w>"
    ],
    [
      "on",
      "ce</w>"
    ],
    [
      "may",
      "be</w>"
    ],
    [
      "some",
      "one</w>"
    ],
    [
      "an",
      "im"
    ],
    [
      "cre",
      "di"
    ],
    [
      "every",
      "thing</w>"
    ],
    [
      "re",
      "ason</w>"
    ],
    [
      "s",
      "it"
    ],
    [
      "u",
      "su"
    ],
    [
      "s",
      "y</w>"
    ],
    [
      "wa",
      "sn</w>"
    ],
    [
      "st",
      "y"
    ],
    [
      "b",
      "rea"
    ],
    [
      "sh",
      "ows</w>"
    ],
    [
      "f",
      "oll"
    ],
    [
      "le",
      "v"
    ],
    [
      "an",
      "e</w>"
    ],
    [
      "at",
      "es</w>"
    ],
    [
      "th",
      "ree</w>"
    ],
    [
      "e",
      "t"
    ],
    [
      "pl",
      "o"
    ],
    [
      "re",
      "comm"
    ],
    [
      "sup",
      "po"
    ],
    [
      "e",
      "d"
    ],
    [
      "jo",
      "b</w>"
    ],
    [
      "u",
      "sed</w>"
    ],
    [
      "pla",
      "ys</w>"
    ],
    [
      "de",
      "ci"
    ],
    [
      "disa",
      "p"
    ],
    [
      "wa",
      "st"
    ],
    [
      "ow",
      "ing</w>"
    ],
    [
      "lat",
      "er</w>"
    ],
    [
      "w",
      "r"
    ],
    [
      "k",
      "en</w>"
    ],
    [
      "ne",
      "y</w>"
    ],
    [
      "f",
      "l"
    ],
    [
      "watch",
      "ed</w>"
    ],
    [
      "er",
      "i"
    ]
  ],
  "base_vocab": 